
#ifdef __has_attribute
#define HAVE_ATTRIBUTE(x) __has_attribute(x)
#else
#define HAVE_ATTRIBUTE(x) 0
#endif
#if HAVE_ATTRIBUTE(aligned) || (defined(__GNUC__) && !defined(__clang__))
#define DATA_ALIGN_ATTRIBUTE __attribute__((aligned(4)))
#else
#define DATA_ALIGN_ATTRIBUTE
#endif

const unsigned char model_data[] DATA_ALIGN_ATTRIBUTE = {0x1c, 0x00, 0x00, 0x00, 0x54, 0x46, 0x4c, 0x33, 0x14, 0x00, 0x20, 0x00, 0x1c, 0x00, 0x18, 0x00, 0x14, 0x00, 0x10, 0x00, 0x0c, 0x00, 0x00, 0x00, 0x08, 0x00, 0x04, 0x00, 0x14, 0x00, 0x00, 0x00, 0x1c, 0x00, 0x00, 0x00, 0x8c, 0x00, 0x00, 0x00, 0xe4, 0x00, 0x00, 0x00, 0x5c, 0x06, 0x00, 0x00, 0x6c, 0x06, 0x00, 0x00, 0xcc, 0x0c, 0x00, 0x00, 0x03, 0x00, 0x00, 0x00, 0x01, 0x00, 0x00, 0x00, 0x10, 0x00, 0x00, 0x00, 0x00, 0x00, 0x0a, 0x00, 0x10, 0x00, 0x0c, 0x00, 0x08, 0x00, 0x04, 0x00, 0x0a, 0x00, 0x00, 0x00, 0x0c, 0x00, 0x00, 0x00, 0x1c, 0x00, 0x00, 0x00, 0x38, 0x00, 0x00, 0x00, 0x0f, 0x00, 0x00, 0x00, 0x73, 0x65, 0x72, 0x76, 0x69, 0x6e, 0x67, 0x5f, 0x64, 0x65, 0x66, 0x61, 0x75, 0x6c, 0x74, 0x00, 0x01, 0x00, 0x00, 0x00, 0x04, 0x00, 0x00, 0x00, 0x9c, 0xff, 0xff, 0xff, 0x0c, 0x00, 0x00, 0x00, 0x04, 0x00, 0x00, 0x00, 0x07, 0x00, 0x00, 0x00, 0x64, 0x65, 0x6e, 0x73, 0x65, 0x5f, 0x33, 0x00, 0x01, 0x00, 0x00, 0x00, 0x04, 0x00, 0x00, 0x00, 0x56, 0xfa, 0xff, 0xff, 0x04, 0x00, 0x00, 0x00, 0x07, 0x00, 0x00, 0x00, 0x69, 0x6e, 0x70, 0x75, 0x74, 0x5f, 0x31, 0x00, 0x02, 0x00, 0x00, 0x00, 0x34, 0x00, 0x00, 0x00, 0x04, 0x00, 0x00, 0x00, 0xdc, 0xff, 0xff, 0xff, 0x0f, 0x00, 0x00, 0x00, 0x04, 0x00, 0x00, 0x00, 0x13, 0x00, 0x00, 0x00, 0x43, 0x4f, 0x4e, 0x56, 0x45, 0x52, 0x53, 0x49, 0x4f, 0x4e, 0x5f, 0x4d, 0x45, 0x54, 0x41, 0x44, 0x41, 0x54, 0x41, 0x00, 0x08, 0x00, 0x0c, 0x00, 0x08, 0x00, 0x04, 0x00, 0x08, 0x00, 0x00, 0x00, 0x0e, 0x00, 0x00, 0x00, 0x04, 0x00, 0x00, 0x00, 0x13, 0x00, 0x00, 0x00, 0x6d, 0x69, 0x6e, 0x5f, 0x72, 0x75, 0x6e, 0x74, 0x69, 0x6d, 0x65, 0x5f, 0x76, 0x65, 0x72, 0x73, 0x69, 0x6f, 0x6e, 0x00, 0x10, 0x00, 0x00, 0x00, 0x74, 0x05, 0x00, 0x00, 0x6c, 0x05, 0x00, 0x00, 0x34, 0x05, 0x00, 0x00, 0xf4, 0x04, 0x00, 0x00, 0xe0, 0x04, 0x00, 0x00, 0xa8, 0x04, 0x00, 0x00, 0x20, 0x04, 0x00, 0x00, 0x80, 0x02, 0x00, 0x00, 0xe0, 0x00, 0x00, 0x00, 0xa8, 0x00, 0x00, 0x00, 0xa0, 0x00, 0x00, 0x00, 0x98, 0x00, 0x00, 0x00, 0x90, 0x00, 0x00, 0x00, 0x88, 0x00, 0x00, 0x00, 0x68, 0x00, 0x00, 0x00, 0x04, 0x00, 0x00, 0x00, 0x0a, 0xfb, 0xff, 0xff, 0x04, 0x00, 0x00, 0x00, 0x54, 0x00, 0x00, 0x00, 0x0c, 0x00, 0x00, 0x00, 0x08, 0x00, 0x0e, 0x00, 0x08, 0x00, 0x04, 0x00, 0x08, 0x00, 0x00, 0x00, 0x10, 0x00, 0x00, 0x00, 0x24, 0x00, 0x00, 0x00, 0x00, 0x00, 0x06, 0x00, 0x08, 0x00, 0x04, 0x00, 0x06, 0x00, 0x00, 0x00, 0x04, 0x00, 0x00, 0x00, 0x00, 0x00, 0x00, 0x00, 0x00, 0x00, 0x0a, 0x00, 0x10, 0x00, 0x0c, 0x00, 0x08, 0x00, 0x04, 0x00, 0x0a, 0x00, 0x00, 0x00, 0x02, 0x00, 0x00, 0x00, 0x02, 0x00, 0x00, 0x00, 0x04, 0x00, 0x00, 0x00, 0x06, 0x00, 0x00, 0x00, 0x32, 0x2e, 0x31, 0x34, 0x2e, 0x30, 0x00, 0x00, 0x6a, 0xfb, 0xff, 0xff, 0x04, 0x00, 0x00, 0x00, 0x10, 0x00, 0x00, 0x00, 0x31, 0x2e, 0x35, 0x2e, 0x30, 0x00, 0x00, 0x00, 0x00, 0x00, 0x00, 0x00, 0x00, 0x00, 0x00, 0x00, 0x00, 0xf5, 0xff, 0xff, 0x04, 0xf5, 0xff, 0xff, 0x08, 0xf5, 0xff, 0xff, 0x0c, 0xf5, 0xff, 0xff, 0x96, 0xfb, 0xff, 0xff, 0x04, 0x00, 0x00, 0x00, 0x28, 0x00, 0x00, 0x00, 0x60, 0x7e, 0x26, 0xbf, 0x8b, 0x6e, 0x8f, 0x3f, 0xbe, 0xa6, 0x6a, 0xc0, 0x11, 0x26, 0xd6, 0x3f, 0x36, 0x67, 0x91, 0xbe, 0x74, 0x01, 0xc4, 0xbe, 0xeb, 0xc6, 0xc5, 0x3e, 0xd3, 0x07, 0x6d, 0xc0, 0x25, 0x15, 0xd0, 0xc0, 0x84, 0x73, 0xf9, 0x3f, 0xca, 0xfb, 0xff, 0xff, 0x04, 0x00, 0x00, 0x00, 0x90, 0x01, 0x00, 0x00, 0xc0, 0x01, 0x24, 0x3c, 0x3e, 0x65, 0x01, 0xbf, 0x30, 0xd5, 0xed, 0xbd, 0xe4, 0xaa, 0xeb, 0xbd, 0xa0, 0x36, 0x31, 0x3e, 0xc6, 0x2d, 0xa7, 0x3e, 0xc2, 0x90, 0x9f, 0xbe, 0x16, 0xba, 0xe1, 0x3e, 0xa0, 0x3b, 0x83, 0x3c, 0xc0, 0xb5, 0xaa, 0xbc, 0xac, 0x4d, 0x08, 0x3f, 0xcb, 0x50, 0x41, 0x3f, 0x60, 0x48, 0xa6, 0x3d, 0x7d, 0x17, 0x0b, 0xbf, 0x8c, 0xb4, 0xe2, 0x3f, 0x99, 0xf7, 0xa5, 0xbe, 0xe2, 0xfe, 0x9a, 0x3f, 0x3a, 0x8f, 0x54, 0x40, 0x06, 0x5a, 0x07, 0x3f, 0x60, 0x32, 0x4f, 0xbe, 0x09, 0xaa, 0xdc, 0xbe, 0xd9, 0x5d, 0x02, 0x3f, 0xe4, 0xab, 0xbe, 0xbe, 0x10, 0x60, 0x3c, 0x3e, 0xc0, 0x14, 0x14, 0xc0, 0xf6, 0xc1, 0xd8, 0x3e, 0x70, 0xd1, 0x98, 0x3e, 0x52, 0xa7, 0x80, 0xc0, 0x33, 0x00, 0x0f, 0x3f, 0x1c, 0x75, 0x80, 0xbe, 0xfc, 0x20, 0x01, 0x3f, 0x17, 0x6e, 0xc4, 0x3f, 0xfa, 0x9c, 0xda, 0x3e, 0x9f, 0xd8, 0x8f, 0xbe, 0x7b, 0x29, 0xbc, 0x3f, 0xc8, 0x47, 0x8e, 0xbe, 0x8a, 0xb6, 0xbe, 0x3f, 0xea, 0x52, 0x50, 0x40, 0x7c, 0x69, 0x41, 0x3f, 0xb0, 0x6d, 0x26, 0xbd, 0xd4, 0x1d, 0x98, 0x3e, 0xc0, 0x20, 0x46, 0xbc, 0x65, 0xc8, 0x09, 0xbf, 0x30, 0xf6, 0x21, 0x3e, 0x66, 0x97, 0x9f, 0x3e, 0x00, 0xc1, 0x9d, 0xbc, 0x84, 0xf0, 0x41, 0xbe, 0xf0, 0x6e, 0xe4, 0xbe, 0x72, 0x7f, 0x39, 0xbe, 0x7a, 0x75, 0x94, 0x3e, 0xd0, 0x73, 0xe9, 0x3e, 0x96, 0x45, 0xab, 0xbe, 0x24, 0x10, 0x3f, 0xbe, 0xc0, 0x68, 0xee, 0x3c, 0xf4, 0x7c, 0x44, 0x3e, 0xc4, 0x84, 0x85, 0xbe, 0x42, 0x77, 0xec, 0xbe, 0x48, 0x91, 0xcb, 0x3d, 0xfe, 0x34, 0x49, 0xbe, 0x60, 0xc9, 0xee, 0x3c, 0x44, 0x4c, 0x4f, 0x3e, 0x4c, 0xa0, 0x81, 0xbe, 0x78, 0xe6, 0xad, 0x3d, 0x8c, 0x81, 0xff, 0x3e, 0xdb, 0x84, 0xbd, 0xbe, 0xe8, 0xf8, 0xa6, 0x3e, 0x30, 0x18, 0x02, 0xbf, 0xcd, 0x0e, 0x4a, 0xbe, 0xd5, 0xb7, 0x50, 0x3e, 0x60, 0x72, 0x9f, 0xbe, 0xdc, 0x7e, 0xd3, 0x3e, 0xab, 0x74, 0x16, 0xbd, 0x04, 0xc5, 0xc4, 0xbe, 0x3a, 0x29, 0x01, 0xbf, 0x59, 0x30, 0x13, 0xc0, 0x40, 0x46, 0xee, 0x3c, 0x7c, 0xdd, 0x8d, 0x3e, 0x14, 0x99, 0x81, 0xc0, 0xd1, 0xb6, 0x71, 0x3f, 0xe4, 0xb7, 0x81, 0xbe, 0x90, 0x88, 0xbc, 0xbd, 0xd8, 0x4d, 0x41, 0xbd, 0xc4, 0x03, 0x63, 0xbe, 0xae, 0xc1, 0xee, 0xbe, 0x78, 0x00, 0xc9, 0x3f, 0x54, 0xef, 0x34, 0x3e, 0x71, 0x93, 0x3d, 0x3f, 0xe3, 0x4e, 0x97, 0x3d, 0x36, 0x9d, 0x9b, 0xbf, 0x18, 0xb6, 0x1a, 0xbe, 0xd6, 0x49, 0xa8, 0x3e, 0x33, 0xb3, 0xc6, 0x3f, 0x40, 0x43, 0xb4, 0xbc, 0x70, 0x1b, 0x79, 0x3e, 0xeb, 0x2d, 0xe3, 0x3f, 0xea, 0xc0, 0xab, 0x3e, 0xaa, 0x70, 0x91, 0x3f, 0x35, 0xd9, 0x5f, 0x40, 0xe4, 0xd2, 0x82, 0x3f, 0x60, 0x79, 0x92, 0x3c, 0x66, 0xfd, 0xff, 0xff, 0x04, 0x00, 0x00, 0x00, 0x90, 0x01, 0x00, 0x00, 0xc0, 0x61, 0x4e, 0xbc, 0x67, 0xde, 0x03, 0xbf, 0xbc, 0x8a, 0x8c, 0x3e, 0x04, 0xfb, 0x4b, 0x3e, 0x52, 0x34, 0x50, 0xbe, 0xc2, 0x23, 0x88, 0x3e, 0x60, 0x67, 0x82, 0x3c, 0x70, 0x7f, 0xfb, 0x3e, 0x18, 0xb1, 0xff, 0xbe, 0xa8, 0x8c, 0x24, 0xbe, 0x82, 0xa2, 0x49, 0xbe, 0x8b, 0xda, 0x70, 0x3f, 0xac, 0x7f, 0xb4, 0x3e, 0xa8, 0x4e, 0x03, 0x40, 0xff, 0xbe, 0xea, 0x3e, 0x9b, 0x3d, 0x02, 0xc0, 0xac, 0x21, 0xba, 0xbe, 0x79, 0x82, 0x89, 0xbe, 0xf0, 0x59, 0x2b, 0x3e, 0x1b, 0x47, 0x3b, 0x3f, 0xe8, 0x3c, 0xf7, 0xbe, 0xb4, 0x81, 0xb5, 0xbd, 0x54, 0xec, 0x46, 0x3e, 0x0c, 0x4d, 0x2a, 0x3e, 0xb8, 0x9a, 0x5c, 0xbd, 0x24, 0x59, 0x39, 0x3e, 0x5f, 0xe7, 0x83, 0xbe, 0x30, 0x75, 0x4c, 0x3e, 0xb6, 0x16, 0xb7, 0xbe, 0x1e, 0x36, 0x07, 0xbf, 0x14, 0x15, 0x79, 0xbe, 0xa0, 0xea, 0xdb, 0x3d, 0xac, 0x0a, 0x87, 0x3e, 0x30, 0x67, 0x06, 0xbf, 0x26, 0xef, 0xbf, 0xbe, 0x85, 0x1f, 0x96, 0xbe, 0xa0, 0x45, 0x24, 0xbe, 0x12, 0xce, 0xb8, 0x3e, 0xa5, 0xe5, 0xf6, 0xbe, 0xf2, 0x8d, 0x04, 0xbe, 0xd0, 0x1f, 0x98, 0x3e, 0xab, 0x7e, 0x38, 0xbe, 0x70, 0xe4, 0x1b, 0x3d, 0x65, 0xe5, 0x42, 0x40, 0xba, 0x8f, 0x7a, 0xbd, 0x81, 0x7a, 0x1f, 0xc0, 0x0c, 0xb9, 0xfd, 0x3e, 0x13, 0xb9, 0xe6, 0xbe, 0x46, 0x7b, 0x27, 0x3f, 0x15, 0x9b, 0x67, 0x3f, 0x34, 0x8d, 0xd3, 0x3e, 0xff, 0x65, 0xbb, 0x3d, 0x94, 0x96, 0x83, 0xbd, 0x50, 0xbd, 0xe7, 0x3d, 0x90, 0xcd, 0x0f, 0xbf, 0x48, 0x48, 0x8b, 0x3e, 0xe4, 0x66, 0x84, 0x3e, 0xb0, 0x8e, 0xf4, 0x3d, 0xab, 0x72, 0xda, 0xbe, 0xaf, 0x12, 0x12, 0xbe, 0xdc, 0x97, 0xf2, 0x3e, 0x17, 0x4a, 0x70, 0x3f, 0x4c, 0x57, 0xae, 0x3e, 0x76, 0xc4, 0x37, 0x40, 0x58, 0x0a, 0x31, 0x3f, 0xd9, 0x49, 0x24, 0xc0, 0xa7, 0xb0, 0x08, 0xbf, 0xb1, 0x75, 0xc2, 0xbe, 0x6a, 0x15, 0xa7, 0x3e, 0xbe, 0xda, 0x70, 0x3f, 0xa8, 0x0a, 0x05, 0x3f, 0x5f, 0x6e, 0x4a, 0x3f, 0x30, 0x65, 0x98, 0x3d, 0xab, 0x41, 0xef, 0xbf, 0x89, 0x88, 0xd2, 0xbe, 0xe6, 0x97, 0x5f, 0x3f, 0x7c, 0xb5, 0xdc, 0xbd, 0xb9, 0xcc, 0x05, 0x3f, 0x6c, 0x89, 0xbf, 0xbe, 0x23, 0xd7, 0x99, 0xbe, 0x1a, 0x72, 0x02, 0xbe, 0xb8, 0x11, 0xb8, 0x3f, 0xf3, 0x96, 0x05, 0xbf, 0xc4, 0x35, 0x28, 0x40, 0xe0, 0xca, 0x56, 0x40, 0x88, 0x6d, 0xb0, 0xbd, 0x7c, 0xef, 0x70, 0x3e, 0x08, 0x39, 0xdd, 0x3e, 0x82, 0x50, 0xc3, 0x3e, 0x65, 0x21, 0x00, 0xbf, 0x50, 0xe0, 0xbd, 0x3d, 0xa4, 0x2d, 0x7b, 0x3e, 0xf0, 0x4f, 0x02, 0x3f, 0xd2, 0x3a, 0x83, 0xbe, 0x00, 0x81, 0xa8, 0x3d, 0x00, 0x40, 0x66, 0xbb, 0xd8, 0x52, 0xe4, 0x3d, 0x5a, 0x4c, 0xdd, 0x3e, 0x36, 0xa3, 0xe8, 0xbe, 0x04, 0xb9, 0xfb, 0xbe, 0x02, 0xff, 0xff, 0xff, 0x04, 0x00, 0x00, 0x00, 0x78, 0x00, 0x00, 0x00, 0xea, 0x9f, 0xb1, 0xbe, 0x64, 0x3e, 0x61, 0x3e, 0xf4, 0xe0, 0x18, 0x3f, 0x36, 0x8c, 0xae, 0x3d, 0x12, 0xee, 0x19, 0x3f, 0x8a, 0x92, 0xeb, 0x3f, 0x60, 0xf0, 0xd7, 0xbd, 0x60, 0x2b, 0x03, 0x3d, 0x91, 0x98, 0x04, 0xbf, 0x15, 0xe0, 0x3f, 0xbd, 0xc1, 0x21, 0x0d, 0x3f, 0x08, 0xc3, 0x0f, 0xbf, 0xa3, 0x8e, 0x35, 0x3d, 0xcf, 0x94, 0xfc, 0xbf, 0x76, 0xff, 0xa2, 0x3f, 0xa9, 0xa1, 0x8d, 0x3e, 0x55, 0x9e, 0x21, 0xc0, 0xe4, 0xb5, 0xf9, 0x3f, 0xf6, 0xf0, 0xa2, 0xbe, 0xba, 0xa5, 0x15, 0xbf, 0xd0, 0x58, 0xb9, 0xbd, 0x5f, 0xc2, 0x46, 0xbe, 0xad, 0x7d, 0x03, 0x3f, 0xc3, 0xa1, 0x9f, 0xbe, 0x1b, 0xca, 0x0c, 0x3f, 0x1a, 0x5c, 0x93, 0xbf, 0x12, 0x7a, 0x14, 0xbf, 0x54, 0xc8, 0x15, 0x3f, 0xe6, 0x56, 0x27, 0xbe, 0xf1, 0xca, 0x46, 0xbf, 0x86, 0xff, 0xff, 0xff, 0x04, 0x00, 0x00, 0x00, 0x28, 0x00, 0x00, 0x00, 0x00, 0x00, 0x00, 0x00, 0x97, 0x33, 0x89, 0x40, 0x00, 0x00, 0x00, 0x00, 0x0d, 0x7e, 0x8c, 0x40, 0x5f, 0x99, 0xe1, 0x40, 0xa5, 0xce, 0x76, 0xc0, 0x00, 0x00, 0x00, 0x00, 0xe7, 0xef, 0x0c, 0xbd, 0xf0, 0x02, 0x89, 0x40, 0xc4, 0xcc, 0x72, 0x40, 0xba, 0xff, 0xff, 0xff, 0x04, 0x00, 0x00, 0x00, 0x04, 0x00, 0x00, 0x00, 0xbc, 0xcb, 0x5a, 0x40, 0xca, 0xff, 0xff, 0xff, 0x04, 0x00, 0x00, 0x00, 0x28, 0x00, 0x00, 0x00, 0x00, 0x00, 0x00, 0x00, 0xdc, 0xf9, 0x59, 0x40, 0x61, 0x12, 0xfb, 0xbc, 0xa8, 0xcf, 0x6f, 0x40, 0x00, 0x00, 0x00, 0x00, 0x00, 0x00, 0x00, 0x00, 0x0c, 0xff, 0x3d, 0xbd, 0x6d, 0xd1, 0x9e, 0xbe, 0xa7, 0xe0, 0xe6, 0xc0, 0x83, 0x62, 0x6a, 0x40, 0x00, 0x00, 0x06, 0x00, 0x08, 0x00, 0x04, 0x00, 0x06, 0x00, 0x00, 0x00, 0x04, 0x00, 0x00, 0x00, 0x28, 0x00, 0x00, 0x00, 0x00, 0x00, 0x00, 0x00, 0x03, 0x0c, 0x89, 0x40, 0x00, 0x00, 0x00, 0x00, 0x00, 0x00, 0x00, 0x00, 0xc3, 0x58, 0x3a, 0x40, 0xed, 0xef, 0x29, 0xbe, 0x96, 0xff, 0x5d, 0x40, 0xe7, 0xb3, 0x44, 0xbf, 0xaf, 0xe6, 0xfd, 0x40, 0x00, 0x00, 0x00, 0x00, 0xb4, 0xf9, 0xff, 0xff, 0xb8, 0xf9, 0xff, 0xff, 0x0f, 0x00, 0x00, 0x00, 0x4d, 0x4c, 0x49, 0x52, 0x20, 0x43, 0x6f, 0x6e, 0x76, 0x65, 0x72, 0x74, 0x65, 0x64, 0x2e, 0x00, 0x01, 0x00, 0x00, 0x00, 0x14, 0x00, 0x00, 0x00, 0x00, 0x00, 0x0e, 0x00, 0x18, 0x00, 0x14, 0x00, 0x10, 0x00, 0x0c, 0x00, 0x08, 0x00, 0x04, 0x00, 0x0e, 0x00, 0x00, 0x00, 0x14, 0x00, 0x00, 0x00, 0x1c, 0x00, 0x00, 0x00, 0x10, 0x01, 0x00, 0x00, 0x14, 0x01, 0x00, 0x00, 0x18, 0x01, 0x00, 0x00, 0x04, 0x00, 0x00, 0x00, 0x6d, 0x61, 0x69, 0x6e, 0x00, 0x00, 0x00, 0x00, 0x04, 0x00, 0x00, 0x00, 0xb8, 0x00, 0x00, 0x00, 0x70, 0x00, 0x00, 0x00, 0x38, 0x00, 0x00, 0x00, 0x04, 0x00, 0x00, 0x00, 0x66, 0xff, 0xff, 0xff, 0x10, 0x00, 0x00, 0x00, 0x00, 0x00, 0x00, 0x08, 0x0c, 0x00, 0x00, 0x00, 0x10, 0x00, 0x00, 0x00, 0x34, 0xfa, 0xff, 0xff, 0x01, 0x00, 0x00, 0x00, 0x0c, 0x00, 0x00, 0x00, 0x03, 0x00, 0x00, 0x00, 0x0b, 0x00, 0x00, 0x00, 0x08, 0x00, 0x00, 0x00, 0x03, 0x00, 0x00, 0x00, 0x96, 0xff, 0xff, 0xff, 0x10, 0x00, 0x00, 0x00, 0x00, 0x00, 0x00, 0x08, 0x10, 0x00, 0x00, 0x00, 0x14, 0x00, 0x00, 0x00, 0x86, 0xff, 0xff, 0xff, 0x00, 0x00, 0x00, 0x01, 0x01, 0x00, 0x00, 0x00, 0x0b, 0x00, 0x00, 0x00, 0x03, 0x00, 0x00, 0x00, 0x0a, 0x00, 0x00, 0x00, 0x07, 0x00, 0x00, 0x00, 0x02, 0x00, 0x00, 0x00, 0xca, 0xff, 0xff, 0xff, 0x10, 0x00, 0x00, 0x00, 0x00, 0x00, 0x00, 0x08, 0x10, 0x00, 0x00, 0x00, 0x14, 0x00, 0x00, 0x00, 0xba, 0xff, 0xff, 0xff, 0x00, 0x00, 0x00, 0x01, 0x01, 0x00, 0x00, 0x00, 0x0a, 0x00, 0x00, 0x00, 0x03, 0x00, 0x00, 0x00, 0x09, 0x00, 0x00, 0x00, 0x06, 0x00, 0x00, 0x00, 0x01, 0x00, 0x00, 0x00, 0x00, 0x00, 0x0e, 0x00, 0x16, 0x00, 0x00, 0x00, 0x10, 0x00, 0x0c, 0x00, 0x0b, 0x00, 0x04, 0x00, 0x0e, 0x00, 0x00, 0x00, 0x18, 0x00, 0x00, 0x00, 0x00, 0x00, 0x00, 0x08, 0x18, 0x00, 0x00, 0x00, 0x1c, 0x00, 0x00, 0x00, 0x00, 0x00, 0x06, 0x00, 0x08, 0x00, 0x07, 0x00, 0x06, 0x00, 0x00, 0x00, 0x00, 0x00, 0x00, 0x01, 0x01, 0x00, 0x00, 0x00, 0x09, 0x00, 0x00, 0x00, 0x03, 0x00, 0x00, 0x00, 0x00, 0x00, 0x00, 0x00, 0x05, 0x00, 0x00, 0x00, 0x04, 0x00, 0x00, 0x00, 0x01, 0x00, 0x00, 0x00, 0x0c, 0x00, 0x00, 0x00, 0x01, 0x00, 0x00, 0x00, 0x00, 0x00, 0x00, 0x00, 0x0d, 0x00, 0x00, 0x00, 0xc0, 0x04, 0x00, 0x00, 0x50, 0x04, 0x00, 0x00, 0xe0, 0x03, 0x00, 0x00, 0x88, 0x03, 0x00, 0x00, 0x34, 0x03, 0x00, 0x00, 0xec, 0x02, 0x00, 0x00, 0xa0, 0x02, 0x00, 0x00, 0x54, 0x02, 0x00, 0x00, 0x08, 0x02, 0x00, 0x00, 0x80, 0x01, 0x00, 0x00, 0xf0, 0x00, 0x00, 0x00, 0x60, 0x00, 0x00, 0x00, 0x04, 0x00, 0x00, 0x00, 0x8a, 0xfb, 0xff, 0xff, 0x00, 0x00, 0x00, 0x01, 0x14, 0x00, 0x00, 0x00, 0x1c, 0x00, 0x00, 0x00, 0x1c, 0x00, 0x00, 0x00, 0x0d, 0x00, 0x00, 0x00, 0x34, 0x00, 0x00, 0x00, 0x02, 0x00, 0x00, 0x00, 0xff, 0xff, 0xff, 0xff, 0x01, 0x00, 0x00, 0x00, 0x74, 0xfb, 0xff, 0xff, 0x19, 0x00, 0x00, 0x00, 0x53, 0x74, 0x61, 0x74, 0x65, 0x66, 0x75, 0x6c, 0x50, 0x61, 0x72, 0x74, 0x69, 0x74, 0x69, 0x6f, 0x6e, 0x65, 0x64, 0x43, 0x61, 0x6c, 0x6c, 0x3a, 0x30, 0x00, 0x00, 0x00, 0x02, 0x00, 0x00, 0x00, 0x01, 0x00, 0x00, 0x00, 0x01, 0x00, 0x00, 0x00, 0xe2, 0xfb, 0xff, 0xff, 0x00, 0x00, 0x00, 0x01, 0x14, 0x00, 0x00, 0x00, 0x1c, 0x00, 0x00, 0x00, 0x1c, 0x00, 0x00, 0x00, 0x0c, 0x00, 0x00, 0x00, 0x68, 0x00, 0x00, 0x00, 0x02, 0x00, 0x00, 0x00, 0xff, 0xff, 0xff, 0xff, 0x0a, 0x00, 0x00, 0x00, 0xcc, 0xfb, 0xff, 0xff, 0x4c, 0x00, 0x00, 0x00, 0x73, 0x65, 0x71, 0x75, 0x65, 0x6e, 0x74, 0x69, 0x61, 0x6c, 0x2f, 0x64, 0x65, 0x6e, 0x73, 0x65, 0x5f, 0x32, 0x2f, 0x4d, 0x61, 0x74, 0x4d, 0x75, 0x6c, 0x3b, 0x73, 0x65, 0x71, 0x75, 0x65, 0x6e, 0x74, 0x69, 0x61, 0x6c, 0x2f, 0x64, 0x65, 0x6e, 0x73, 0x65, 0x5f, 0x32, 0x2f, 0x52, 0x65, 0x6c, 0x75, 0x3b, 0x73, 0x65, 0x71, 0x75, 0x65, 0x6e, 0x74, 0x69, 0x61, 0x6c, 0x2f, 0x64, 0x65, 0x6e, 0x73, 0x65, 0x5f, 0x32, 0x2f, 0x42, 0x69, 0x61, 0x73, 0x41, 0x64, 0x64, 0x00, 0x00, 0x00, 0x00, 0x02, 0x00, 0x00, 0x00, 0x01, 0x00, 0x00, 0x00, 0x0a, 0x00, 0x00, 0x00, 0x6e, 0xfc, 0xff, 0xff, 0x00, 0x00, 0x00, 0x01, 0x14, 0x00, 0x00, 0x00, 0x1c, 0x00, 0x00, 0x00, 0x1c, 0x00, 0x00, 0x00, 0x0b, 0x00, 0x00, 0x00, 0x68, 0x00, 0x00, 0x00, 0x02, 0x00, 0x00, 0x00, 0xff, 0xff, 0xff, 0xff, 0x0a, 0x00, 0x00, 0x00, 0x58, 0xfc, 0xff, 0xff, 0x4c, 0x00, 0x00, 0x00, 0x73, 0x65, 0x71, 0x75, 0x65, 0x6e, 0x74, 0x69, 0x61, 0x6c, 0x2f, 0x64, 0x65, 0x6e, 0x73, 0x65, 0x5f, 0x31, 0x2f, 0x4d, 0x61, 0x74, 0x4d, 0x75, 0x6c, 0x3b, 0x73, 0x65, 0x71, 0x75, 0x65, 0x6e, 0x74, 0x69, 0x61, 0x6c, 0x2f, 0x64, 0x65, 0x6e, 0x73, 0x65, 0x5f, 0x31, 0x2f, 0x52, 0x65, 0x6c, 0x75, 0x3b, 0x73, 0x65, 0x71, 0x75, 0x65, 0x6e, 0x74, 0x69, 0x61, 0x6c, 0x2f, 0x64, 0x65, 0x6e, 0x73, 0x65, 0x5f, 0x31, 0x2f, 0x42, 0x69, 0x61, 0x73, 0x41, 0x64, 0x64, 0x00, 0x00, 0x00, 0x00, 0x02, 0x00, 0x00, 0x00, 0x01, 0x00, 0x00, 0x00, 0x0a, 0x00, 0x00, 0x00, 0xfa, 0xfc, 0xff, 0xff, 0x00, 0x00, 0x00, 0x01, 0x14, 0x00, 0x00, 0x00, 0x1c, 0x00, 0x00, 0x00, 0x1c, 0x00, 0x00, 0x00, 0x0a, 0x00, 0x00, 0x00, 0x60, 0x00, 0x00, 0x00, 0x02, 0x00, 0x00, 0x00, 0xff, 0xff, 0xff, 0xff, 0x0a, 0x00, 0x00, 0x00, 0xe4, 0xfc, 0xff, 0xff, 0x46, 0x00, 0x00, 0x00, 0x73, 0x65, 0x71, 0x75, 0x65, 0x6e, 0x74, 0x69, 0x61, 0x6c, 0x2f, 0x64, 0x65, 0x6e, 0x73, 0x65, 0x2f, 0x4d, 0x61, 0x74, 0x4d, 0x75, 0x6c, 0x3b, 0x73, 0x65, 0x71, 0x75, 0x65, 0x6e, 0x74, 0x69, 0x61, 0x6c, 0x2f, 0x64, 0x65, 0x6e, 0x73, 0x65, 0x2f, 0x52, 0x65, 0x6c, 0x75, 0x3b, 0x73, 0x65, 0x71, 0x75, 0x65, 0x6e, 0x74, 0x69, 0x61, 0x6c, 0x2f, 0x64, 0x65, 0x6e, 0x73, 0x65, 0x2f, 0x42, 0x69, 0x61, 0x73, 0x41, 0x64, 0x64, 0x00, 0x00, 0x02, 0x00, 0x00, 0x00, 0x01, 0x00, 0x00, 0x00, 0x0a, 0x00, 0x00, 0x00, 0xea, 0xfd, 0xff, 0xff, 0x00, 0x00, 0x00, 0x01, 0x10, 0x00, 0x00, 0x00, 0x10, 0x00, 0x00, 0x00, 0x09, 0x00, 0x00, 0x00, 0x28, 0x00, 0x00, 0x00, 0x58, 0xfd, 0xff, 0xff, 0x19, 0x00, 0x00, 0x00, 0x73, 0x65, 0x71, 0x75, 0x65, 0x6e, 0x74, 0x69, 0x61, 0x6c, 0x2f, 0x64, 0x65, 0x6e, 0x73, 0x65, 0x5f, 0x33, 0x2f, 0x4d, 0x61, 0x74, 0x4d, 0x75, 0x6c, 0x00, 0x00, 0x00, 0x02, 0x00, 0x00, 0x00, 0x01, 0x00, 0x00, 0x00, 0x0a, 0x00, 0x00, 0x00, 0x32, 0xfe, 0xff, 0xff, 0x00, 0x00, 0x00, 0x01, 0x10, 0x00, 0x00, 0x00, 0x10, 0x00, 0x00, 0x00, 0x08, 0x00, 0x00, 0x00, 0x28, 0x00, 0x00, 0x00, 0xa0, 0xfd, 0xff, 0xff, 0x19, 0x00, 0x00, 0x00, 0x73, 0x65, 0x71, 0x75, 0x65, 0x6e, 0x74, 0x69, 0x61, 0x6c, 0x2f, 0x64, 0x65, 0x6e, 0x73, 0x65, 0x5f, 0x32, 0x2f, 0x4d, 0x61, 0x74, 0x4d, 0x75, 0x6c, 0x00, 0x00, 0x00, 0x02, 0x00, 0x00, 0x00, 0x0a, 0x00, 0x00, 0x00, 0x0a, 0x00, 0x00, 0x00, 0x7a, 0xfe, 0xff, 0xff, 0x00, 0x00, 0x00, 0x01, 0x10, 0x00, 0x00, 0x00, 0x10, 0x00, 0x00, 0x00, 0x07, 0x00, 0x00, 0x00, 0x28, 0x00, 0x00, 0x00, 0xe8, 0xfd, 0xff, 0xff, 0x19, 0x00, 0x00, 0x00, 0x73, 0x65, 0x71, 0x75, 0x65, 0x6e, 0x74, 0x69, 0x61, 0x6c, 0x2f, 0x64, 0x65, 0x6e, 0x73, 0x65, 0x5f, 0x31, 0x2f, 0x4d, 0x61, 0x74, 0x4d, 0x75, 0x6c, 0x00, 0x00, 0x00, 0x02, 0x00, 0x00, 0x00, 0x0a, 0x00, 0x00, 0x00, 0x0a, 0x00, 0x00, 0x00, 0xc2, 0xfe, 0xff, 0xff, 0x00, 0x00, 0x00, 0x01, 0x10, 0x00, 0x00, 0x00, 0x10, 0x00, 0x00, 0x00, 0x06, 0x00, 0x00, 0x00, 0x24, 0x00, 0x00, 0x00, 0x30, 0xfe, 0xff, 0xff, 0x17, 0x00, 0x00, 0x00, 0x73, 0x65, 0x71, 0x75, 0x65, 0x6e, 0x74, 0x69, 0x61, 0x6c, 0x2f, 0x64, 0x65, 0x6e, 0x73, 0x65, 0x2f, 0x4d, 0x61, 0x74, 0x4d, 0x75, 0x6c, 0x00, 0x02, 0x00, 0x00, 0x00, 0x0a, 0x00, 0x00, 0x00, 0x03, 0x00, 0x00, 0x00, 0x06, 0xff, 0xff, 0xff, 0x00, 0x00, 0x00, 0x01, 0x10, 0x00, 0x00, 0x00, 0x10, 0x00, 0x00, 0x00, 0x05, 0x00, 0x00, 0x00, 0x34, 0x00, 0x00, 0x00, 0x74, 0xfe, 0xff, 0xff, 0x27, 0x00, 0x00, 0x00, 0x73, 0x65, 0x71, 0x75, 0x65, 0x6e, 0x74, 0x69, 0x61, 0x6c, 0x2f, 0x64, 0x65, 0x6e, 0x73, 0x65, 0x2f, 0x42, 0x69, 0x61, 0x73, 0x41, 0x64, 0x64, 0x2f, 0x52, 0x65, 0x61, 0x64, 0x56, 0x61, 0x72, 0x69, 0x61, 0x62, 0x6c, 0x65, 0x4f, 0x70, 0x00, 0x01, 0x00, 0x00, 0x00, 0x0a, 0x00, 0x00, 0x00, 0x56, 0xff, 0xff, 0xff, 0x00, 0x00, 0x00, 0x01, 0x10, 0x00, 0x00, 0x00, 0x10, 0x00, 0x00, 0x00, 0x04, 0x00, 0x00, 0x00, 0x38, 0x00, 0x00, 0x00, 0xc4, 0xfe, 0xff, 0xff, 0x29, 0x00, 0x00, 0x00, 0x73, 0x65, 0x71, 0x75, 0x65, 0x6e, 0x74, 0x69, 0x61, 0x6c, 0x2f, 0x64, 0x65, 0x6e, 0x73, 0x65, 0x5f, 0x33, 0x2f, 0x42, 0x69, 0x61, 0x73, 0x41, 0x64, 0x64, 0x2f, 0x52, 0x65, 0x61, 0x64, 0x56, 0x61, 0x72, 0x69, 0x61, 0x62, 0x6c, 0x65, 0x4f, 0x70, 0x00, 0x00, 0x00, 0x01, 0x00, 0x00, 0x00, 0x01, 0x00, 0x00, 0x00, 0xaa, 0xff, 0xff, 0xff, 0x00, 0x00, 0x00, 0x01, 0x10, 0x00, 0x00, 0x00, 0x10, 0x00, 0x00, 0x00, 0x03, 0x00, 0x00, 0x00, 0x38, 0x00, 0x00, 0x00, 0x18, 0xff, 0xff, 0xff, 0x29, 0x00, 0x00, 0x00, 0x73, 0x65, 0x71, 0x75, 0x65, 0x6e, 0x74, 0x69, 0x61, 0x6c, 0x2f, 0x64, 0x65, 0x6e, 0x73, 0x65, 0x5f, 0x32, 0x2f, 0x42, 0x69, 0x61, 0x73, 0x41, 0x64, 0x64, 0x2f, 0x52, 0x65, 0x61, 0x64, 0x56, 0x61, 0x72, 0x69, 0x61, 0x62, 0x6c, 0x65, 0x4f, 0x70, 0x00, 0x00, 0x00, 0x01, 0x00, 0x00, 0x00, 0x0a, 0x00, 0x00, 0x00, 0x00, 0x00, 0x16, 0x00, 0x18, 0x00, 0x14, 0x00, 0x00, 0x00, 0x10, 0x00, 0x0c, 0x00, 0x08, 0x00, 0x00, 0x00, 0x00, 0x00, 0x00, 0x00, 0x07, 0x00, 0x16, 0x00, 0x00, 0x00, 0x00, 0x00, 0x00, 0x01, 0x10, 0x00, 0x00, 0x00, 0x10, 0x00, 0x00, 0x00, 0x02, 0x00, 0x00, 0x00, 0x38, 0x00, 0x00, 0x00, 0x84, 0xff, 0xff, 0xff, 0x29, 0x00, 0x00, 0x00, 0x73, 0x65, 0x71, 0x75, 0x65, 0x6e, 0x74, 0x69, 0x61, 0x6c, 0x2f, 0x64, 0x65, 0x6e, 0x73, 0x65, 0x5f, 0x31, 0x2f, 0x42, 0x69, 0x61, 0x73, 0x41, 0x64, 0x64, 0x2f, 0x52, 0x65, 0x61, 0x64, 0x56, 0x61, 0x72, 0x69, 0x61, 0x62, 0x6c, 0x65, 0x4f, 0x70, 0x00, 0x00, 0x00, 0x01, 0x00, 0x00, 0x00, 0x0a, 0x00, 0x00, 0x00, 0x00, 0x00, 0x16, 0x00, 0x1c, 0x00, 0x18, 0x00, 0x00, 0x00, 0x14, 0x00, 0x10, 0x00, 0x0c, 0x00, 0x00, 0x00, 0x00, 0x00, 0x08, 0x00, 0x07, 0x00, 0x16, 0x00, 0x00, 0x00, 0x00, 0x00, 0x00, 0x01, 0x14, 0x00, 0x00, 0x00, 0x20, 0x00, 0x00, 0x00, 0x20, 0x00, 0x00, 0x00, 0x01, 0x00, 0x00, 0x00, 0x38, 0x00, 0x00, 0x00, 0x02, 0x00, 0x00, 0x00, 0xff, 0xff, 0xff, 0xff, 0x03, 0x00, 0x00, 0x00, 0x04, 0x00, 0x04, 0x00, 0x04, 0x00, 0x00, 0x00, 0x19, 0x00, 0x00, 0x00, 0x73, 0x65, 0x72, 0x76, 0x69, 0x6e, 0x67, 0x5f, 0x64, 0x65, 0x66, 0x61, 0x75, 0x6c, 0x74, 0x5f, 0x69, 0x6e, 0x70, 0x75, 0x74, 0x5f, 0x31, 0x3a, 0x30, 0x00, 0x00, 0x00, 0x02, 0x00, 0x00, 0x00, 0x01, 0x00, 0x00, 0x00, 0x03, 0x00, 0x00, 0x00, 0x01, 0x00, 0x00, 0x00, 0x10, 0x00, 0x00, 0x00, 0x0c, 0x00, 0x0c, 0x00, 0x0b, 0x00, 0x00, 0x00, 0x00, 0x00, 0x04, 0x00, 0x0c, 0x00, 0x00, 0x00, 0x09, 0x00, 0x00, 0x00, 0x00, 0x00, 0x00, 0x09};
const int model_data_len = 3360;