
#ifdef __has_attribute
#define HAVE_ATTRIBUTE(x) __has_attribute(x)
#else
#define HAVE_ATTRIBUTE(x) 0
#endif
#if HAVE_ATTRIBUTE(aligned) || (defined(__GNUC__) && !defined(__clang__))
#define DATA_ALIGN_ATTRIBUTE __attribute__((aligned(4)))
#else
#define DATA_ALIGN_ATTRIBUTE
#endif

const unsigned char model_data[] DATA_ALIGN_ATTRIBUTE = {0x1c, 0x00, 0x00, 0x00, 0x54, 0x46, 0x4c, 0x33, 0x14, 0x00, 0x20, 0x00, 0x1c, 0x00, 0x18, 0x00, 0x14, 0x00, 0x10, 0x00, 0x0c, 0x00, 0x00, 0x00, 0x08, 0x00, 0x04, 0x00, 0x14, 0x00, 0x00, 0x00, 0x1c, 0x00, 0x00, 0x00, 0x8c, 0x00, 0x00, 0x00, 0xe4, 0x00, 0x00, 0x00, 0x5c, 0x06, 0x00, 0x00, 0x6c, 0x06, 0x00, 0x00, 0xcc, 0x0c, 0x00, 0x00, 0x03, 0x00, 0x00, 0x00, 0x01, 0x00, 0x00, 0x00, 0x10, 0x00, 0x00, 0x00, 0x00, 0x00, 0x0a, 0x00, 0x10, 0x00, 0x0c, 0x00, 0x08, 0x00, 0x04, 0x00, 0x0a, 0x00, 0x00, 0x00, 0x0c, 0x00, 0x00, 0x00, 0x1c, 0x00, 0x00, 0x00, 0x38, 0x00, 0x00, 0x00, 0x0f, 0x00, 0x00, 0x00, 0x73, 0x65, 0x72, 0x76, 0x69, 0x6e, 0x67, 0x5f, 0x64, 0x65, 0x66, 0x61, 0x75, 0x6c, 0x74, 0x00, 0x01, 0x00, 0x00, 0x00, 0x04, 0x00, 0x00, 0x00, 0x9c, 0xff, 0xff, 0xff, 0x0c, 0x00, 0x00, 0x00, 0x04, 0x00, 0x00, 0x00, 0x07, 0x00, 0x00, 0x00, 0x64, 0x65, 0x6e, 0x73, 0x65, 0x5f, 0x33, 0x00, 0x01, 0x00, 0x00, 0x00, 0x04, 0x00, 0x00, 0x00, 0x56, 0xfa, 0xff, 0xff, 0x04, 0x00, 0x00, 0x00, 0x07, 0x00, 0x00, 0x00, 0x69, 0x6e, 0x70, 0x75, 0x74, 0x5f, 0x31, 0x00, 0x02, 0x00, 0x00, 0x00, 0x34, 0x00, 0x00, 0x00, 0x04, 0x00, 0x00, 0x00, 0xdc, 0xff, 0xff, 0xff, 0x0f, 0x00, 0x00, 0x00, 0x04, 0x00, 0x00, 0x00, 0x13, 0x00, 0x00, 0x00, 0x43, 0x4f, 0x4e, 0x56, 0x45, 0x52, 0x53, 0x49, 0x4f, 0x4e, 0x5f, 0x4d, 0x45, 0x54, 0x41, 0x44, 0x41, 0x54, 0x41, 0x00, 0x08, 0x00, 0x0c, 0x00, 0x08, 0x00, 0x04, 0x00, 0x08, 0x00, 0x00, 0x00, 0x0e, 0x00, 0x00, 0x00, 0x04, 0x00, 0x00, 0x00, 0x13, 0x00, 0x00, 0x00, 0x6d, 0x69, 0x6e, 0x5f, 0x72, 0x75, 0x6e, 0x74, 0x69, 0x6d, 0x65, 0x5f, 0x76, 0x65, 0x72, 0x73, 0x69, 0x6f, 0x6e, 0x00, 0x10, 0x00, 0x00, 0x00, 0x74, 0x05, 0x00, 0x00, 0x6c, 0x05, 0x00, 0x00, 0x34, 0x05, 0x00, 0x00, 0xf4, 0x04, 0x00, 0x00, 0xe0, 0x04, 0x00, 0x00, 0xa8, 0x04, 0x00, 0x00, 0x20, 0x04, 0x00, 0x00, 0x80, 0x02, 0x00, 0x00, 0xe0, 0x00, 0x00, 0x00, 0xa8, 0x00, 0x00, 0x00, 0xa0, 0x00, 0x00, 0x00, 0x98, 0x00, 0x00, 0x00, 0x90, 0x00, 0x00, 0x00, 0x88, 0x00, 0x00, 0x00, 0x68, 0x00, 0x00, 0x00, 0x04, 0x00, 0x00, 0x00, 0x0a, 0xfb, 0xff, 0xff, 0x04, 0x00, 0x00, 0x00, 0x54, 0x00, 0x00, 0x00, 0x0c, 0x00, 0x00, 0x00, 0x08, 0x00, 0x0e, 0x00, 0x08, 0x00, 0x04, 0x00, 0x08, 0x00, 0x00, 0x00, 0x10, 0x00, 0x00, 0x00, 0x24, 0x00, 0x00, 0x00, 0x00, 0x00, 0x06, 0x00, 0x08, 0x00, 0x04, 0x00, 0x06, 0x00, 0x00, 0x00, 0x04, 0x00, 0x00, 0x00, 0x00, 0x00, 0x00, 0x00, 0x00, 0x00, 0x0a, 0x00, 0x10, 0x00, 0x0c, 0x00, 0x08, 0x00, 0x04, 0x00, 0x0a, 0x00, 0x00, 0x00, 0x02, 0x00, 0x00, 0x00, 0x02, 0x00, 0x00, 0x00, 0x04, 0x00, 0x00, 0x00, 0x06, 0x00, 0x00, 0x00, 0x32, 0x2e, 0x31, 0x34, 0x2e, 0x30, 0x00, 0x00, 0x6a, 0xfb, 0xff, 0xff, 0x04, 0x00, 0x00, 0x00, 0x10, 0x00, 0x00, 0x00, 0x31, 0x2e, 0x35, 0x2e, 0x30, 0x00, 0x00, 0x00, 0x00, 0x00, 0x00, 0x00, 0x00, 0x00, 0x00, 0x00, 0x00, 0xf5, 0xff, 0xff, 0x04, 0xf5, 0xff, 0xff, 0x08, 0xf5, 0xff, 0xff, 0x0c, 0xf5, 0xff, 0xff, 0x96, 0xfb, 0xff, 0xff, 0x04, 0x00, 0x00, 0x00, 0x28, 0x00, 0x00, 0x00, 0x94, 0x09, 0xf2, 0xbe, 0x73, 0x89, 0xb3, 0x3f, 0x09, 0xb6, 0xad, 0x3f, 0x13, 0x0d, 0x27, 0xbd, 0x69, 0xa2, 0xef, 0xbe, 0x20, 0x42, 0x9b, 0xbc, 0x00, 0x89, 0xa7, 0xbd, 0x14, 0xc7, 0x20, 0xbf, 0x83, 0x12, 0x5f, 0x3f, 0x8d, 0x96, 0xb5, 0x3f, 0xca, 0xfb, 0xff, 0xff, 0x04, 0x00, 0x00, 0x00, 0x90, 0x01, 0x00, 0x00, 0x82, 0xe7, 0xea, 0xbe, 0x8e, 0xbd, 0xc6, 0x3e, 0xae, 0xd8, 0x79, 0xbe, 0x00, 0x64, 0x0e, 0xbe, 0x5c, 0xea, 0x99, 0xbe, 0xf6, 0x08, 0xa9, 0xbe, 0x64, 0xcb, 0x0b, 0xbf, 0x8a, 0x48, 0xc1, 0xbe, 0xf8, 0x21, 0xf4, 0x3d, 0x66, 0x18, 0x29, 0xbe, 0x64, 0x54, 0x08, 0x3f, 0x40, 0x4c, 0x3c, 0x3f, 0xa1, 0xda, 0x97, 0x3f, 0x9c, 0xda, 0x9f, 0x3e, 0xa1, 0x8c, 0x04, 0xbf, 0xe8, 0x5f, 0xdc, 0xbe, 0x58, 0x0a, 0xe2, 0x3e, 0x9c, 0x4b, 0x57, 0xbe, 0x14, 0xe4, 0x8d, 0x3f, 0x46, 0xeb, 0x63, 0xbe, 0x9c, 0xa5, 0xba, 0x3f, 0x13, 0x38, 0x12, 0x3f, 0xf9, 0xa4, 0x24, 0x3f, 0x00, 0x17, 0x87, 0x3e, 0x35, 0xad, 0xbc, 0xbe, 0xc0, 0x7c, 0xc9, 0x3d, 0x10, 0x90, 0x09, 0xbe, 0xc0, 0xea, 0x05, 0x3e, 0x30, 0x99, 0xc2, 0x3f, 0x0c, 0xb3, 0x44, 0x3e, 0x6c, 0x31, 0x6f, 0x3e, 0x3e, 0xe5, 0x16, 0xbf, 0x25, 0x82, 0xd3, 0x3e, 0xd8, 0x6f, 0xc9, 0x3e, 0xca, 0x07, 0xa6, 0x3e, 0x88, 0x30, 0xd9, 0x3e, 0x44, 0x0d, 0xbb, 0xbd, 0xf4, 0x68, 0xd6, 0x3e, 0x38, 0x93, 0x0e, 0xbf, 0x30, 0x8f, 0x3e, 0xbd, 0x04, 0xd4, 0x86, 0x3e, 0xa5, 0x69, 0x1b, 0xbf, 0x73, 0xec, 0xc1, 0x3e, 0x86, 0x7f, 0xbe, 0x3e, 0x8a, 0x5a, 0xc0, 0xbe, 0x76, 0x35, 0xfb, 0xbe, 0xac, 0xee, 0xd4, 0x3e, 0x14, 0x7a, 0xea, 0xbd, 0x62, 0x13, 0x0d, 0xbf, 0xf8, 0x52, 0xcf, 0xbe, 0xa0, 0xb2, 0x38, 0x3e, 0xfc, 0x44, 0x6f, 0x3e, 0x62, 0x53, 0xbc, 0xbe, 0xfd, 0x26, 0xa6, 0xbe, 0x54, 0x70, 0xdf, 0x3e, 0x94, 0xe7, 0xcc, 0x3e, 0x70, 0x5f, 0xfd, 0x3d, 0x00, 0xba, 0x58, 0x3c, 0x00, 0xf4, 0xe4, 0xbd, 0x40, 0x3c, 0x50, 0xbc, 0x96, 0x97, 0x7f, 0xbe, 0x58, 0x96, 0x78, 0xbe, 0xe0, 0xe2, 0xa1, 0xbc, 0xd1, 0xaf, 0x93, 0xbe, 0x0c, 0x01, 0xe6, 0x3e, 0xe8, 0x0d, 0xb1, 0x3d, 0x7c, 0x7b, 0x04, 0x3f, 0x40, 0x87, 0x2a, 0xbc, 0x0c, 0x7d, 0x56, 0x3e, 0x58, 0x26, 0x9b, 0xbe, 0xf2, 0xeb, 0x7e, 0xbe, 0x63, 0xc3, 0x8c, 0xbe, 0xe8, 0xa7, 0xce, 0xbe, 0xe4, 0x79, 0x00, 0x3e, 0x80, 0xc5, 0x2f, 0x3e, 0x22, 0xa6, 0x9b, 0x3e, 0x20, 0x1a, 0x18, 0xbd, 0xe8, 0x27, 0x00, 0x3f, 0x3c, 0xb5, 0x7f, 0xbe, 0xd0, 0x7d, 0xcb, 0x3e, 0x08, 0x9a, 0xa5, 0x3f, 0x7c, 0x46, 0x8d, 0x3f, 0x91, 0x94, 0x1e, 0x3f, 0x10, 0x15, 0x13, 0x3d, 0x6f, 0x22, 0xf6, 0xbe, 0x4a, 0x2d, 0xbb, 0xbe, 0x70, 0x86, 0x4d, 0xbe, 0xb4, 0x8a, 0xee, 0x3e, 0x6a, 0x92, 0xa5, 0x3f, 0x64, 0x89, 0x58, 0xbe, 0xdb, 0x0d, 0x2c, 0x3f, 0xff, 0x4d, 0xb8, 0x3f, 0x36, 0x89, 0x8d, 0x3f, 0x18, 0x75, 0x68, 0xbd, 0xa6, 0x15, 0xe7, 0xbe, 0x60, 0xd9, 0x25, 0xbd, 0xa0, 0x3e, 0xcb, 0x3d, 0x90, 0xab, 0x73, 0x3d, 0xeb, 0x19, 0x13, 0x3f, 0x2a, 0xb1, 0x9c, 0x3e, 0x66, 0xfd, 0xff, 0xff, 0x04, 0x00, 0x00, 0x00, 0x90, 0x01, 0x00, 0x00, 0x1b, 0xf3, 0x9c, 0x40, 0xb1, 0x29, 0x8a, 0xbc, 0xa0, 0x0e, 0x97, 0xbc, 0xb1, 0xd8, 0x11, 0x3f, 0x08, 0xb4, 0xda, 0x3e, 0x2e, 0x95, 0x53, 0x3e, 0xa6, 0xb8, 0x04, 0x3f, 0xee, 0x63, 0x40, 0xbe, 0xe6, 0xf5, 0x8a, 0xbe, 0xc2, 0x1f, 0x84, 0x3f, 0xef, 0xde, 0x8f, 0x40, 0x5b, 0xc0, 0x4e, 0x3d, 0x45, 0xb8, 0x09, 0xbf, 0x3c, 0x9a, 0xb2, 0x3f, 0x8c, 0x1d, 0x86, 0x3e, 0x65, 0x31, 0x07, 0x3f, 0xb1, 0x55, 0x05, 0x3f, 0x88, 0x37, 0xa6, 0x3d, 0x98, 0x48, 0xf0, 0xbd, 0x0a, 0x7d, 0xfe, 0x3f, 0xc1, 0x2d, 0xa2, 0x40, 0x37, 0xa9, 0x5c, 0x3f, 0x70, 0x38, 0x57, 0xbe, 0x7a, 0x1f, 0xd8, 0x3f, 0x48, 0xa9, 0x78, 0x3e, 0xd6, 0x42, 0x0c, 0x3f, 0x08, 0x75, 0x13, 0x3f, 0xe0, 0x6c, 0x36, 0xbd, 0x14, 0xa4, 0x56, 0xbe, 0x1e, 0xc3, 0x02, 0x40, 0x1c, 0x4c, 0xb9, 0x3e, 0x80, 0xe2, 0xb3, 0xbb, 0xb8, 0x3d, 0xb7, 0xbe, 0x40, 0xb2, 0x66, 0x3c, 0x20, 0x82, 0xbb, 0x3d, 0xc0, 0xaf, 0xb5, 0xbc, 0x1f, 0x4c, 0xba, 0xbe, 0x58, 0xd0, 0x8f, 0xbd, 0x04, 0x5f, 0xdc, 0xbd, 0xc8, 0x93, 0xbd, 0xbe, 0x2c, 0xeb, 0x0a, 0xbf, 0x77, 0x7b, 0xf7, 0xbe, 0xb8, 0x37, 0x7e, 0x3e, 0xc0, 0xd4, 0x54, 0xbc, 0x2c, 0x50, 0xd2, 0xbd, 0x30, 0x68, 0x16, 0x3d, 0x60, 0x1e, 0x0f, 0xbd, 0x4a, 0x49, 0x8d, 0xbe, 0xac, 0xcf, 0x8c, 0xbd, 0x6c, 0x49, 0xb3, 0x3e, 0xf6, 0xf9, 0x85, 0x3e, 0xff, 0x94, 0x97, 0xbe, 0x14, 0x48, 0x80, 0xbe, 0x04, 0xbd, 0x01, 0xbf, 0xa0, 0xcf, 0x45, 0x3e, 0x00, 0x66, 0xe7, 0x3a, 0xe3, 0xd2, 0xf6, 0xbe, 0xe0, 0x1f, 0xa4, 0xbd, 0xce, 0x7e, 0xcb, 0x3e, 0x3c, 0xc2, 0x56, 0xbe, 0x0c, 0xf2, 0x57, 0x3e, 0x9f, 0x62, 0x91, 0xbe, 0xe2, 0x03, 0xb9, 0x3e, 0xb8, 0xc9, 0x2d, 0x3e, 0xf8, 0x5b, 0x26, 0x3e, 0xc3, 0x09, 0xd1, 0xbe, 0xe0, 0xb1, 0x38, 0x3e, 0x16, 0x5f, 0xb0, 0x3e, 0x48, 0xc4, 0x00, 0x3f, 0xf0, 0x45, 0x89, 0x3d, 0xa4, 0xe2, 0xc3, 0xbe, 0x50, 0xf5, 0x97, 0xbd, 0x16, 0xee, 0xbd, 0x3e, 0x92, 0xfa, 0x1d, 0xbe, 0x2a, 0x4e, 0x00, 0x3f, 0x85, 0xa2, 0x97, 0xbe, 0x10, 0xac, 0x6e, 0xbe, 0xe8, 0xbf, 0x17, 0x3e, 0x6c, 0x50, 0x8b, 0x3e, 0x98, 0xb1, 0xfe, 0x3e, 0xe9, 0xfd, 0x98, 0x40, 0x49, 0xbd, 0x2f, 0x3e, 0x74, 0x6f, 0x6c, 0x3e, 0xd5, 0x4e, 0xcd, 0x3f, 0x72, 0x31, 0xfc, 0xbe, 0x97, 0x20, 0x0c, 0x3f, 0x21, 0xbe, 0xc7, 0x3c, 0x80, 0x0d, 0x0a, 0xbd, 0xb4, 0x48, 0xfa, 0x3e, 0xaf, 0xf9, 0x19, 0x40, 0x64, 0x60, 0x57, 0xbe, 0xbc, 0x31, 0x82, 0xbd, 0x21, 0x3c, 0xc1, 0xbe, 0x10, 0x91, 0x80, 0x3d, 0xdf, 0xb2, 0xfd, 0xbe, 0x44, 0xdb, 0xf6, 0xbd, 0x80, 0x3c, 0x1f, 0x3e, 0xda, 0x52, 0xbc, 0x3e, 0x06, 0xdf, 0xe5, 0x3e, 0x05, 0x7c, 0x87, 0xbe, 0x02, 0xff, 0xff, 0xff, 0x04, 0x00, 0x00, 0x00, 0x78, 0x00, 0x00, 0x00, 0x28, 0x1b, 0x08, 0x3e, 0x19, 0xf4, 0x00, 0x40, 0xe9, 0xef, 0x37, 0xc0, 0xdb, 0x41, 0x83, 0x3e, 0x04, 0x15, 0x12, 0x40, 0x90, 0x3f, 0x9b, 0xbf, 0x07, 0xb7, 0xcd, 0xbe, 0xd4, 0x18, 0x08, 0x3f, 0x80, 0x67, 0x1e, 0xbe, 0xe2, 0xe8, 0xe8, 0xbc, 0x42, 0x9b, 0x21, 0x40, 0xd5, 0x80, 0x3a, 0xbf, 0x28, 0x66, 0xe4, 0xbd, 0x3a, 0xc8, 0xae, 0xbe, 0x1c, 0xbd, 0x67, 0x3e, 0xec, 0x05, 0xe0, 0x3e, 0x03, 0x53, 0x06, 0x40, 0xe1, 0x05, 0x6b, 0xbf, 0x60, 0xc5, 0xf4, 0x3d, 0xb2, 0x91, 0xdf, 0x3f, 0x9d, 0x08, 0x26, 0xbf, 0x24, 0x20, 0x00, 0xbf, 0xa6, 0xc0, 0x10, 0x3f, 0x21, 0xcf, 0xb8, 0xbe, 0xf2, 0x13, 0x0c, 0xbf, 0x64, 0xa4, 0x10, 0x3f, 0x38, 0x29, 0x4c, 0x3e, 0x59, 0xc2, 0x62, 0x3e, 0xcf, 0x47, 0xab, 0x3f, 0xc7, 0x58, 0x09, 0xc0, 0x86, 0xff, 0xff, 0xff, 0x04, 0x00, 0x00, 0x00, 0x28, 0x00, 0x00, 0x00, 0x58, 0x1f, 0x2c, 0x3f, 0xa4, 0x00, 0x10, 0x40, 0x00, 0x00, 0x00, 0x00, 0x92, 0x35, 0x26, 0x40, 0x00, 0x00, 0x00, 0x00, 0xa6, 0x9c, 0x1a, 0x40, 0x7d, 0xb4, 0x14, 0x40, 0x00, 0x00, 0x00, 0x00, 0x00, 0x00, 0x00, 0x00, 0xf2, 0xa9, 0x45, 0x3f, 0xba, 0xff, 0xff, 0xff, 0x04, 0x00, 0x00, 0x00, 0x04, 0x00, 0x00, 0x00, 0x61, 0xe9, 0x11, 0x40, 0xca, 0xff, 0xff, 0xff, 0x04, 0x00, 0x00, 0x00, 0x28, 0x00, 0x00, 0x00, 0x00, 0x00, 0x00, 0x00, 0xb0, 0xc3, 0x14, 0x40, 0x95, 0x06, 0x16, 0x40, 0x5d, 0x0b, 0x9e, 0xbd, 0xc1, 0xca, 0x8d, 0xbd, 0x00, 0x00, 0x00, 0x00, 0x00, 0x00, 0x00, 0x00, 0x00, 0x00, 0x00, 0x00, 0x42, 0x74, 0x0b, 0x40, 0xcb, 0x87, 0x14, 0x40, 0x00, 0x00, 0x06, 0x00, 0x08, 0x00, 0x04, 0x00, 0x06, 0x00, 0x00, 0x00, 0x04, 0x00, 0x00, 0x00, 0x28, 0x00, 0x00, 0x00, 0x73, 0xae, 0x06, 0x40, 0xc2, 0xb1, 0x17, 0x40, 0xd1, 0x15, 0x1b, 0x40, 0x00, 0x00, 0x00, 0x00, 0x00, 0x00, 0x00, 0x00, 0x00, 0x00, 0x00, 0x00, 0x00, 0x00, 0x00, 0x00, 0x00, 0x00, 0x00, 0x00, 0x63, 0x81, 0x1a, 0x40, 0x00, 0x00, 0x00, 0x00, 0xb4, 0xf9, 0xff, 0xff, 0xb8, 0xf9, 0xff, 0xff, 0x0f, 0x00, 0x00, 0x00, 0x4d, 0x4c, 0x49, 0x52, 0x20, 0x43, 0x6f, 0x6e, 0x76, 0x65, 0x72, 0x74, 0x65, 0x64, 0x2e, 0x00, 0x01, 0x00, 0x00, 0x00, 0x14, 0x00, 0x00, 0x00, 0x00, 0x00, 0x0e, 0x00, 0x18, 0x00, 0x14, 0x00, 0x10, 0x00, 0x0c, 0x00, 0x08, 0x00, 0x04, 0x00, 0x0e, 0x00, 0x00, 0x00, 0x14, 0x00, 0x00, 0x00, 0x1c, 0x00, 0x00, 0x00, 0x10, 0x01, 0x00, 0x00, 0x14, 0x01, 0x00, 0x00, 0x18, 0x01, 0x00, 0x00, 0x04, 0x00, 0x00, 0x00, 0x6d, 0x61, 0x69, 0x6e, 0x00, 0x00, 0x00, 0x00, 0x04, 0x00, 0x00, 0x00, 0xb8, 0x00, 0x00, 0x00, 0x70, 0x00, 0x00, 0x00, 0x38, 0x00, 0x00, 0x00, 0x04, 0x00, 0x00, 0x00, 0x66, 0xff, 0xff, 0xff, 0x10, 0x00, 0x00, 0x00, 0x00, 0x00, 0x00, 0x08, 0x0c, 0x00, 0x00, 0x00, 0x10, 0x00, 0x00, 0x00, 0x34, 0xfa, 0xff, 0xff, 0x01, 0x00, 0x00, 0x00, 0x0c, 0x00, 0x00, 0x00, 0x03, 0x00, 0x00, 0x00, 0x0b, 0x00, 0x00, 0x00, 0x08, 0x00, 0x00, 0x00, 0x03, 0x00, 0x00, 0x00, 0x96, 0xff, 0xff, 0xff, 0x10, 0x00, 0x00, 0x00, 0x00, 0x00, 0x00, 0x08, 0x10, 0x00, 0x00, 0x00, 0x14, 0x00, 0x00, 0x00, 0x86, 0xff, 0xff, 0xff, 0x00, 0x00, 0x00, 0x01, 0x01, 0x00, 0x00, 0x00, 0x0b, 0x00, 0x00, 0x00, 0x03, 0x00, 0x00, 0x00, 0x0a, 0x00, 0x00, 0x00, 0x07, 0x00, 0x00, 0x00, 0x02, 0x00, 0x00, 0x00, 0xca, 0xff, 0xff, 0xff, 0x10, 0x00, 0x00, 0x00, 0x00, 0x00, 0x00, 0x08, 0x10, 0x00, 0x00, 0x00, 0x14, 0x00, 0x00, 0x00, 0xba, 0xff, 0xff, 0xff, 0x00, 0x00, 0x00, 0x01, 0x01, 0x00, 0x00, 0x00, 0x0a, 0x00, 0x00, 0x00, 0x03, 0x00, 0x00, 0x00, 0x09, 0x00, 0x00, 0x00, 0x06, 0x00, 0x00, 0x00, 0x01, 0x00, 0x00, 0x00, 0x00, 0x00, 0x0e, 0x00, 0x16, 0x00, 0x00, 0x00, 0x10, 0x00, 0x0c, 0x00, 0x0b, 0x00, 0x04, 0x00, 0x0e, 0x00, 0x00, 0x00, 0x18, 0x00, 0x00, 0x00, 0x00, 0x00, 0x00, 0x08, 0x18, 0x00, 0x00, 0x00, 0x1c, 0x00, 0x00, 0x00, 0x00, 0x00, 0x06, 0x00, 0x08, 0x00, 0x07, 0x00, 0x06, 0x00, 0x00, 0x00, 0x00, 0x00, 0x00, 0x01, 0x01, 0x00, 0x00, 0x00, 0x09, 0x00, 0x00, 0x00, 0x03, 0x00, 0x00, 0x00, 0x00, 0x00, 0x00, 0x00, 0x05, 0x00, 0x00, 0x00, 0x04, 0x00, 0x00, 0x00, 0x01, 0x00, 0x00, 0x00, 0x0c, 0x00, 0x00, 0x00, 0x01, 0x00, 0x00, 0x00, 0x00, 0x00, 0x00, 0x00, 0x0d, 0x00, 0x00, 0x00, 0xc0, 0x04, 0x00, 0x00, 0x50, 0x04, 0x00, 0x00, 0xe0, 0x03, 0x00, 0x00, 0x88, 0x03, 0x00, 0x00, 0x34, 0x03, 0x00, 0x00, 0xec, 0x02, 0x00, 0x00, 0xa0, 0x02, 0x00, 0x00, 0x54, 0x02, 0x00, 0x00, 0x08, 0x02, 0x00, 0x00, 0x80, 0x01, 0x00, 0x00, 0xf0, 0x00, 0x00, 0x00, 0x60, 0x00, 0x00, 0x00, 0x04, 0x00, 0x00, 0x00, 0x8a, 0xfb, 0xff, 0xff, 0x00, 0x00, 0x00, 0x01, 0x14, 0x00, 0x00, 0x00, 0x1c, 0x00, 0x00, 0x00, 0x1c, 0x00, 0x00, 0x00, 0x0d, 0x00, 0x00, 0x00, 0x34, 0x00, 0x00, 0x00, 0x02, 0x00, 0x00, 0x00, 0xff, 0xff, 0xff, 0xff, 0x01, 0x00, 0x00, 0x00, 0x74, 0xfb, 0xff, 0xff, 0x19, 0x00, 0x00, 0x00, 0x53, 0x74, 0x61, 0x74, 0x65, 0x66, 0x75, 0x6c, 0x50, 0x61, 0x72, 0x74, 0x69, 0x74, 0x69, 0x6f, 0x6e, 0x65, 0x64, 0x43, 0x61, 0x6c, 0x6c, 0x3a, 0x30, 0x00, 0x00, 0x00, 0x02, 0x00, 0x00, 0x00, 0x01, 0x00, 0x00, 0x00, 0x01, 0x00, 0x00, 0x00, 0xe2, 0xfb, 0xff, 0xff, 0x00, 0x00, 0x00, 0x01, 0x14, 0x00, 0x00, 0x00, 0x1c, 0x00, 0x00, 0x00, 0x1c, 0x00, 0x00, 0x00, 0x0c, 0x00, 0x00, 0x00, 0x68, 0x00, 0x00, 0x00, 0x02, 0x00, 0x00, 0x00, 0xff, 0xff, 0xff, 0xff, 0x0a, 0x00, 0x00, 0x00, 0xcc, 0xfb, 0xff, 0xff, 0x4c, 0x00, 0x00, 0x00, 0x73, 0x65, 0x71, 0x75, 0x65, 0x6e, 0x74, 0x69, 0x61, 0x6c, 0x2f, 0x64, 0x65, 0x6e, 0x73, 0x65, 0x5f, 0x32, 0x2f, 0x4d, 0x61, 0x74, 0x4d, 0x75, 0x6c, 0x3b, 0x73, 0x65, 0x71, 0x75, 0x65, 0x6e, 0x74, 0x69, 0x61, 0x6c, 0x2f, 0x64, 0x65, 0x6e, 0x73, 0x65, 0x5f, 0x32, 0x2f, 0x52, 0x65, 0x6c, 0x75, 0x3b, 0x73, 0x65, 0x71, 0x75, 0x65, 0x6e, 0x74, 0x69, 0x61, 0x6c, 0x2f, 0x64, 0x65, 0x6e, 0x73, 0x65, 0x5f, 0x32, 0x2f, 0x42, 0x69, 0x61, 0x73, 0x41, 0x64, 0x64, 0x00, 0x00, 0x00, 0x00, 0x02, 0x00, 0x00, 0x00, 0x01, 0x00, 0x00, 0x00, 0x0a, 0x00, 0x00, 0x00, 0x6e, 0xfc, 0xff, 0xff, 0x00, 0x00, 0x00, 0x01, 0x14, 0x00, 0x00, 0x00, 0x1c, 0x00, 0x00, 0x00, 0x1c, 0x00, 0x00, 0x00, 0x0b, 0x00, 0x00, 0x00, 0x68, 0x00, 0x00, 0x00, 0x02, 0x00, 0x00, 0x00, 0xff, 0xff, 0xff, 0xff, 0x0a, 0x00, 0x00, 0x00, 0x58, 0xfc, 0xff, 0xff, 0x4c, 0x00, 0x00, 0x00, 0x73, 0x65, 0x71, 0x75, 0x65, 0x6e, 0x74, 0x69, 0x61, 0x6c, 0x2f, 0x64, 0x65, 0x6e, 0x73, 0x65, 0x5f, 0x31, 0x2f, 0x4d, 0x61, 0x74, 0x4d, 0x75, 0x6c, 0x3b, 0x73, 0x65, 0x71, 0x75, 0x65, 0x6e, 0x74, 0x69, 0x61, 0x6c, 0x2f, 0x64, 0x65, 0x6e, 0x73, 0x65, 0x5f, 0x31, 0x2f, 0x52, 0x65, 0x6c, 0x75, 0x3b, 0x73, 0x65, 0x71, 0x75, 0x65, 0x6e, 0x74, 0x69, 0x61, 0x6c, 0x2f, 0x64, 0x65, 0x6e, 0x73, 0x65, 0x5f, 0x31, 0x2f, 0x42, 0x69, 0x61, 0x73, 0x41, 0x64, 0x64, 0x00, 0x00, 0x00, 0x00, 0x02, 0x00, 0x00, 0x00, 0x01, 0x00, 0x00, 0x00, 0x0a, 0x00, 0x00, 0x00, 0xfa, 0xfc, 0xff, 0xff, 0x00, 0x00, 0x00, 0x01, 0x14, 0x00, 0x00, 0x00, 0x1c, 0x00, 0x00, 0x00, 0x1c, 0x00, 0x00, 0x00, 0x0a, 0x00, 0x00, 0x00, 0x60, 0x00, 0x00, 0x00, 0x02, 0x00, 0x00, 0x00, 0xff, 0xff, 0xff, 0xff, 0x0a, 0x00, 0x00, 0x00, 0xe4, 0xfc, 0xff, 0xff, 0x46, 0x00, 0x00, 0x00, 0x73, 0x65, 0x71, 0x75, 0x65, 0x6e, 0x74, 0x69, 0x61, 0x6c, 0x2f, 0x64, 0x65, 0x6e, 0x73, 0x65, 0x2f, 0x4d, 0x61, 0x74, 0x4d, 0x75, 0x6c, 0x3b, 0x73, 0x65, 0x71, 0x75, 0x65, 0x6e, 0x74, 0x69, 0x61, 0x6c, 0x2f, 0x64, 0x65, 0x6e, 0x73, 0x65, 0x2f, 0x52, 0x65, 0x6c, 0x75, 0x3b, 0x73, 0x65, 0x71, 0x75, 0x65, 0x6e, 0x74, 0x69, 0x61, 0x6c, 0x2f, 0x64, 0x65, 0x6e, 0x73, 0x65, 0x2f, 0x42, 0x69, 0x61, 0x73, 0x41, 0x64, 0x64, 0x00, 0x00, 0x02, 0x00, 0x00, 0x00, 0x01, 0x00, 0x00, 0x00, 0x0a, 0x00, 0x00, 0x00, 0xea, 0xfd, 0xff, 0xff, 0x00, 0x00, 0x00, 0x01, 0x10, 0x00, 0x00, 0x00, 0x10, 0x00, 0x00, 0x00, 0x09, 0x00, 0x00, 0x00, 0x28, 0x00, 0x00, 0x00, 0x58, 0xfd, 0xff, 0xff, 0x19, 0x00, 0x00, 0x00, 0x73, 0x65, 0x71, 0x75, 0x65, 0x6e, 0x74, 0x69, 0x61, 0x6c, 0x2f, 0x64, 0x65, 0x6e, 0x73, 0x65, 0x5f, 0x33, 0x2f, 0x4d, 0x61, 0x74, 0x4d, 0x75, 0x6c, 0x00, 0x00, 0x00, 0x02, 0x00, 0x00, 0x00, 0x01, 0x00, 0x00, 0x00, 0x0a, 0x00, 0x00, 0x00, 0x32, 0xfe, 0xff, 0xff, 0x00, 0x00, 0x00, 0x01, 0x10, 0x00, 0x00, 0x00, 0x10, 0x00, 0x00, 0x00, 0x08, 0x00, 0x00, 0x00, 0x28, 0x00, 0x00, 0x00, 0xa0, 0xfd, 0xff, 0xff, 0x19, 0x00, 0x00, 0x00, 0x73, 0x65, 0x71, 0x75, 0x65, 0x6e, 0x74, 0x69, 0x61, 0x6c, 0x2f, 0x64, 0x65, 0x6e, 0x73, 0x65, 0x5f, 0x32, 0x2f, 0x4d, 0x61, 0x74, 0x4d, 0x75, 0x6c, 0x00, 0x00, 0x00, 0x02, 0x00, 0x00, 0x00, 0x0a, 0x00, 0x00, 0x00, 0x0a, 0x00, 0x00, 0x00, 0x7a, 0xfe, 0xff, 0xff, 0x00, 0x00, 0x00, 0x01, 0x10, 0x00, 0x00, 0x00, 0x10, 0x00, 0x00, 0x00, 0x07, 0x00, 0x00, 0x00, 0x28, 0x00, 0x00, 0x00, 0xe8, 0xfd, 0xff, 0xff, 0x19, 0x00, 0x00, 0x00, 0x73, 0x65, 0x71, 0x75, 0x65, 0x6e, 0x74, 0x69, 0x61, 0x6c, 0x2f, 0x64, 0x65, 0x6e, 0x73, 0x65, 0x5f, 0x31, 0x2f, 0x4d, 0x61, 0x74, 0x4d, 0x75, 0x6c, 0x00, 0x00, 0x00, 0x02, 0x00, 0x00, 0x00, 0x0a, 0x00, 0x00, 0x00, 0x0a, 0x00, 0x00, 0x00, 0xc2, 0xfe, 0xff, 0xff, 0x00, 0x00, 0x00, 0x01, 0x10, 0x00, 0x00, 0x00, 0x10, 0x00, 0x00, 0x00, 0x06, 0x00, 0x00, 0x00, 0x24, 0x00, 0x00, 0x00, 0x30, 0xfe, 0xff, 0xff, 0x17, 0x00, 0x00, 0x00, 0x73, 0x65, 0x71, 0x75, 0x65, 0x6e, 0x74, 0x69, 0x61, 0x6c, 0x2f, 0x64, 0x65, 0x6e, 0x73, 0x65, 0x2f, 0x4d, 0x61, 0x74, 0x4d, 0x75, 0x6c, 0x00, 0x02, 0x00, 0x00, 0x00, 0x0a, 0x00, 0x00, 0x00, 0x03, 0x00, 0x00, 0x00, 0x06, 0xff, 0xff, 0xff, 0x00, 0x00, 0x00, 0x01, 0x10, 0x00, 0x00, 0x00, 0x10, 0x00, 0x00, 0x00, 0x05, 0x00, 0x00, 0x00, 0x34, 0x00, 0x00, 0x00, 0x74, 0xfe, 0xff, 0xff, 0x27, 0x00, 0x00, 0x00, 0x73, 0x65, 0x71, 0x75, 0x65, 0x6e, 0x74, 0x69, 0x61, 0x6c, 0x2f, 0x64, 0x65, 0x6e, 0x73, 0x65, 0x2f, 0x42, 0x69, 0x61, 0x73, 0x41, 0x64, 0x64, 0x2f, 0x52, 0x65, 0x61, 0x64, 0x56, 0x61, 0x72, 0x69, 0x61, 0x62, 0x6c, 0x65, 0x4f, 0x70, 0x00, 0x01, 0x00, 0x00, 0x00, 0x0a, 0x00, 0x00, 0x00, 0x56, 0xff, 0xff, 0xff, 0x00, 0x00, 0x00, 0x01, 0x10, 0x00, 0x00, 0x00, 0x10, 0x00, 0x00, 0x00, 0x04, 0x00, 0x00, 0x00, 0x38, 0x00, 0x00, 0x00, 0xc4, 0xfe, 0xff, 0xff, 0x29, 0x00, 0x00, 0x00, 0x73, 0x65, 0x71, 0x75, 0x65, 0x6e, 0x74, 0x69, 0x61, 0x6c, 0x2f, 0x64, 0x65, 0x6e, 0x73, 0x65, 0x5f, 0x33, 0x2f, 0x42, 0x69, 0x61, 0x73, 0x41, 0x64, 0x64, 0x2f, 0x52, 0x65, 0x61, 0x64, 0x56, 0x61, 0x72, 0x69, 0x61, 0x62, 0x6c, 0x65, 0x4f, 0x70, 0x00, 0x00, 0x00, 0x01, 0x00, 0x00, 0x00, 0x01, 0x00, 0x00, 0x00, 0xaa, 0xff, 0xff, 0xff, 0x00, 0x00, 0x00, 0x01, 0x10, 0x00, 0x00, 0x00, 0x10, 0x00, 0x00, 0x00, 0x03, 0x00, 0x00, 0x00, 0x38, 0x00, 0x00, 0x00, 0x18, 0xff, 0xff, 0xff, 0x29, 0x00, 0x00, 0x00, 0x73, 0x65, 0x71, 0x75, 0x65, 0x6e, 0x74, 0x69, 0x61, 0x6c, 0x2f, 0x64, 0x65, 0x6e, 0x73, 0x65, 0x5f, 0x32, 0x2f, 0x42, 0x69, 0x61, 0x73, 0x41, 0x64, 0x64, 0x2f, 0x52, 0x65, 0x61, 0x64, 0x56, 0x61, 0x72, 0x69, 0x61, 0x62, 0x6c, 0x65, 0x4f, 0x70, 0x00, 0x00, 0x00, 0x01, 0x00, 0x00, 0x00, 0x0a, 0x00, 0x00, 0x00, 0x00, 0x00, 0x16, 0x00, 0x18, 0x00, 0x14, 0x00, 0x00, 0x00, 0x10, 0x00, 0x0c, 0x00, 0x08, 0x00, 0x00, 0x00, 0x00, 0x00, 0x00, 0x00, 0x07, 0x00, 0x16, 0x00, 0x00, 0x00, 0x00, 0x00, 0x00, 0x01, 0x10, 0x00, 0x00, 0x00, 0x10, 0x00, 0x00, 0x00, 0x02, 0x00, 0x00, 0x00, 0x38, 0x00, 0x00, 0x00, 0x84, 0xff, 0xff, 0xff, 0x29, 0x00, 0x00, 0x00, 0x73, 0x65, 0x71, 0x75, 0x65, 0x6e, 0x74, 0x69, 0x61, 0x6c, 0x2f, 0x64, 0x65, 0x6e, 0x73, 0x65, 0x5f, 0x31, 0x2f, 0x42, 0x69, 0x61, 0x73, 0x41, 0x64, 0x64, 0x2f, 0x52, 0x65, 0x61, 0x64, 0x56, 0x61, 0x72, 0x69, 0x61, 0x62, 0x6c, 0x65, 0x4f, 0x70, 0x00, 0x00, 0x00, 0x01, 0x00, 0x00, 0x00, 0x0a, 0x00, 0x00, 0x00, 0x00, 0x00, 0x16, 0x00, 0x1c, 0x00, 0x18, 0x00, 0x00, 0x00, 0x14, 0x00, 0x10, 0x00, 0x0c, 0x00, 0x00, 0x00, 0x00, 0x00, 0x08, 0x00, 0x07, 0x00, 0x16, 0x00, 0x00, 0x00, 0x00, 0x00, 0x00, 0x01, 0x14, 0x00, 0x00, 0x00, 0x20, 0x00, 0x00, 0x00, 0x20, 0x00, 0x00, 0x00, 0x01, 0x00, 0x00, 0x00, 0x38, 0x00, 0x00, 0x00, 0x02, 0x00, 0x00, 0x00, 0xff, 0xff, 0xff, 0xff, 0x03, 0x00, 0x00, 0x00, 0x04, 0x00, 0x04, 0x00, 0x04, 0x00, 0x00, 0x00, 0x19, 0x00, 0x00, 0x00, 0x73, 0x65, 0x72, 0x76, 0x69, 0x6e, 0x67, 0x5f, 0x64, 0x65, 0x66, 0x61, 0x75, 0x6c, 0x74, 0x5f, 0x69, 0x6e, 0x70, 0x75, 0x74, 0x5f, 0x31, 0x3a, 0x30, 0x00, 0x00, 0x00, 0x02, 0x00, 0x00, 0x00, 0x01, 0x00, 0x00, 0x00, 0x03, 0x00, 0x00, 0x00, 0x01, 0x00, 0x00, 0x00, 0x10, 0x00, 0x00, 0x00, 0x0c, 0x00, 0x0c, 0x00, 0x0b, 0x00, 0x00, 0x00, 0x00, 0x00, 0x04, 0x00, 0x0c, 0x00, 0x00, 0x00, 0x09, 0x00, 0x00, 0x00, 0x00, 0x00, 0x00, 0x09};
const int model_data_len = 3360;